{
 "_comment": "Generated by tools/gen_baseline.py tokenizer-qwen35. Do not hand-edit.",
 "tokenizer_repo": "Qwen/Qwen3.5-0.8B",
 "tokenizer_revision": "2fc06364715b967f1860aea9cf38778875588b17",
 "tokenizer_json_sha256": "5f9e4d4901a92b997e463c1f46055088b6cca5ca61a6522d1b9f64c4bb81cb42",
 "tokenizer_config_json_sha256": "49e2b6e395f959f077f1e992b338919c0d4a9732fc6e613995e06557f843500c",
 "tokenizers_version": "0.23.2",
 "tokens": {
  "0": "!",
  "1": "\"",
  "2": "#",
  "3": "$",
  "4": "%",
  "5": "&",
  "6": "'",
  "7": "(",
  "8": ")",
  "9": "*",
  "10": "+",
  "11": ",",
  "12": "-",
  "13": ".",
  "14": "/",
  "15": "0",
  "16": "1",
  "17": "2",
  "18": "3",
  "19": "4",
  "20": "5",
  "21": "6",
  "22": "7",
  "23": "8",
  "24": "9",
  "25": ":",
  "26": ";",
  "27": "<",
  "28": "=",
  "29": ">",
  "30": "?",
  "31": "@",
  "32": "A",
  "33": "B",
  "34": "C",
  "35": "D",
  "36": "E",
  "37": "F",
  "38": "G",
  "39": "H",
  "40": "I",
  "41": "J",
  "42": "K",
  "43": "L",
  "44": "M",
  "45": "N",
  "46": "O",
  "47": "P",
  "48": "Q",
  "49": "R",
  "50": "S",
  "51": "T",
  "52": "U",
  "53": "V",
  "54": "W",
  "55": "X",
  "56": "Y",
  "57": "Z",
  "58": "[",
  "59": "\\",
  "60": "]",
  "61": "^",
  "62": "_",
  "63": "`",
  "64": "a",
  "65": "b",
  "66": "c",
  "67": "d",
  "68": "e",
  "69": "f",
  "70": "g",
  "71": "h",
  "72": "i",
  "73": "j",
  "74": "k",
  "75": "l",
  "76": "m",
  "77": "n",
  "78": "o",
  "79": "p",
  "80": "q",
  "81": "r",
  "82": "s",
  "83": "t",
  "84": "u",
  "85": "v",
  "86": "w",
  "87": "x",
  "88": "y",
  "89": "z",
  "90": "{",
  "91": "|",
  "92": "}",
  "93": "~",
  "94": "¡",
  "95": "¢",
  "96": "£",
  "97": "¤",
  "98": "¥",
  "99": "¦",
  "100": "§",
  "101": "¨",
  "102": "©",
  "103": "ª",
  "104": "«",
  "105": "¬",
  "106": "®",
  "107": "¯",
  "108": "°",
  "109": "±",
  "110": "²",
  "111": "³",
  "112": "´",
  "113": "µ",
  "114": "¶",
  "115": "·",
  "116": "¸",
  "117": "¹",
  "118": "º",
  "119": "»",
  "120": "¼",
  "121": "½",
  "122": "¾",
  "123": "¿",
  "124": "À",
  "125": "Á",
  "126": "Â",
  "127": "Ã",
  "128": "Ä",
  "129": "Å",
  "130": "Æ",
  "131": "Ç",
  "132": "È",
  "133": "É",
  "134": "Ê",
  "135": "Ë",
  "136": "Ì",
  "137": "Í",
  "138": "Î",
  "139": "Ï",
  "140": "Ð",
  "141": "Ñ",
  "142": "Ò",
  "143": "Ó",
  "144": "Ô",
  "145": "Õ",
  "146": "Ö",
  "147": "×",
  "148": "Ø",
  "149": "Ù",
  "150": "Ú",
  "151": "Û",
  "152": "Ü",
  "153": "Ý",
  "154": "Þ",
  "155": "ß",
  "156": "à",
  "157": "á",
  "158": "â",
  "159": "ã",
  "160": "ä",
  "161": "å",
  "162": "æ",
  "163": "ç",
  "164": "è",
  "165": "é",
  "166": "ê",
  "167": "ë",
  "168": "ì",
  "169": "í",
  "170": "î",
  "171": "ï",
  "172": "ð",
  "173": "ñ",
  "174": "ò",
  "175": "ó",
  "176": "ô",
  "177": "õ",
  "178": "ö",
  "179": "÷",
  "180": "ø",
  "181": "ù",
  "182": "ú",
  "183": "û",
  "184": "ü",
  "185": "ý",
  "186": "þ",
  "187": "ÿ",
  "188": "Ā",
  "189": "ā",
  "190": "Ă",
  "191": "ă",
  "192": "Ą",
  "193": "ą",
  "194": "Ć",
  "195": "ć",
  "196": "Ĉ",
  "197": "ĉ",
  "198": "Ċ",
  "199": "ċ",
  "200": "Č",
  "201": "č",
  "202": "Ď",
  "203": "ď",
  "204": "Đ",
  "205": "đ",
  "206": "Ē",
  "207": "ē",
  "208": "Ĕ",
  "209": "ĕ",
  "210": "Ė",
  "211": "ė",
  "212": "Ę",
  "213": "ę",
  "214": "Ě",
  "215": "ě",
  "216": "Ĝ",
  "217": "ĝ",
  "218": "Ğ",
  "219": "ğ",
  "220": "Ġ",
  "221": "ġ",
  "222": "Ģ",
  "223": "ģ",
  "224": "Ĥ",
  "225": "ĥ",
  "226": "Ħ",
  "227": "ħ",
  "228": "Ĩ",
  "229": "ĩ",
  "230": "Ī",
  "231": "ī",
  "232": "Ĭ",
  "233": "ĭ",
  "234": "Į",
  "235": "į",
  "236": "İ",
  "237": "ı",
  "238": "Ĳ",
  "239": "ĳ",
  "240": "Ĵ",
  "241": "ĵ",
  "242": "Ķ",
  "243": "ķ",
  "244": "ĸ",
  "245": "Ĺ",
  "246": "ĺ",
  "247": "Ļ",
  "248": "ļ",
  "249": "Ľ",
  "250": "ľ",
  "251": "Ŀ",
  "252": "ŀ",
  "253": "Ł",
  "254": "ł",
  "255": "Ń",
  "256": "ĠĠ",
  "257": "ĠĠĠĠ",
  "258": "in",
  "260": "ĠĠĠĠĠĠĠĠ",
  "261": "er",
  "262": "ĠĠĠ",
  "263": "on",
  "264": "Ġa",
  "265": "re",
  "266": "at",
  "267": "st",
  "268": "en",
  "269": "or",
  "271": "ĊĊ",
  "272": "Ġc",
  "273": "le",
  "274": "Ġs",
  "275": "it",
  "276": "an",
  "277": "ar",
  "278": "al",
  "281": "Ġf",
  "282": "ou",
  "284": "is",
  "285": "ĠĠĠĠĠĠĠ",
  "286": "ing",
  "287": "es",
  "288": "Ġw",
  "289": "ion",
  "290": "ed",
  "294": "et",
  "296": "Ġo",
  "299": "as",
  "300": "el",
  "301": "ct",
  "302": "nd",
  "304": "Ġh",
  "305": "ent",
  "306": "id",
  "307": "Ġn",
  "308": "am",
  "311": "Ġre",
  "313": "Ġ{",
  "314": "Ġof",
  "316": "im",
  "318": "Ġ(",
  "319": "il",
  "321": "Ġand",
  "322": "ur",
  "323": "se",
  "325": "ex",
  "327": "ad",
  "328": "Ġ\"",
  "330": "ut",
  "331": "if",
  "334": "em",
  "335": "ol",
  "337": "th",
  "340": "iv",
  "341": "ce",
  "344": "ate",
  "346": "ag",
  "349": "ot",
  "350": "us",
  "355": "ul",
  "361": "Ġ<",
  "363": "()",
  "365": "ab",
  "367": "um",
  "368": "ame",
  "369": "Ġis",
  "370": "pe",
  "371": "tr",
  "373": "âĢ",
  "375": "ist",
  "377": "he",
  "378": "Ġe",
  "379": "lo",
  "385": "ap",
  "387": "ĠP",
  "389": "ass",
  "392": "urn",
  "398": "nt",
  "400": "end",
  "403": "out",
  "404": "turn",
  "406": "ĠĠĠĠĠ",
  "408": "res",
  "413": "Ġif",
  "416": "age",
  "419": "ext",
  "426": "ĠF",
  "427": "Ġr",
  "429": "and",
  "431": "ect",
  "432": "ke",
  "438": "qu",
  "442": "de",
  "445": "op",
  "448": "ile",
  "449": "Ġan",
  "452": "ri",
  "457": "ĠW",
  "460": "Ġreturn",
  "461": "art",
  "468": "ment",
  "471": "Ġ-",
  "487": "\",",
  "492": "Ġj",
  "497": "ld",
  "505": "ant",
  "507": "ase",
  "510": "</",
  "513": "Ġare",
  "520": "ive",
  "528": "all",
  "529": "ff",
  "532": "are",
  "541": ".p",
  "547": "ok",
  "551": "Ġhe",
  "562": "ide",
  "563": "ace",
  "565": "ac",
  "568": "ject",
  "570": "ak",
  "571": "ve",
  "582": "yst",
  "585": "Ġi",
  "589": "ail",
  "591": "name",
  "597": "ystem",
  "598": "ell",
  "603": "pon",
  "605": "_p",
  "613": "dd",
  "625": "_s",
  "628": "Ġcan",
  "631": "pr",
  "636": "ll",
  "647": "te",
  "648": "_c",
  "656": "ob",
  "663": "ance",
  "671": "return",
  "680": "Ġout",
  "689": "ge",
  "692": "per",
  "697": "_m",
  "703": "ft",
  "706": "ake",
  "712": "Ġim",
  "719": "li",
  "724": "ep",
  "726": "bo",
  "727": "def",
  "732": "ec",
  "741": "ink",
  "753": "ss",
  "760": "The",
  "763": "\":",
  "771": "Ġar",
  "773": "ser",
  "774": "bject",
  "779": "ents",
  "784": "use",
  "789": "io",
  "797": "ef",
  "830": "Ġx",
  "832": "arg",
  "835": "Ġ>",
  "844": "tem",
  "846": "user",
  "895": "ca",
  "896": "SE",
  "911": "ix",
  "914": "'t",
  "920": ".d",
  "926": "ra",
  "933": "Ã©",
  "938": "ng",
  "945": "Ġem",
  "947": "Ġsp",
  "950": "ĠĠĠĠĠĠ",
  "951": "to",
  "969": "Th",
  "981": "co",
  "982": "nc",
  "990": "ponse",
  "1012": "ys",
  "1020": "of",
  "1054": "_n",
  "1062": "ref",
  "1087": "ument",
  "1090": "wo",
  "1093": "anc",
  "1152": "file",
  "1217": "_st",
  "1218": "ful",
  "1222": "elp",
  "1224": "_name",
  "1232": "ãĢ",
  "1243": "_re",
  "1256": "vid",
  "1260": "pace",
  "1272": "text",
  "1314": "uff",
  "1320": "ments",
  "1323": "be",
  "1337": "orld",
  "1438": "Ġhelp",
  "1465": "He",
  "1486": "ï¼",
  "1590": "):",
  "1640": "object",
  "1644": "uf",
  "1650": "_r",
  "1666": "pre",
  "1667": "ma",
  "1687": "ool",
  "1709": "idd",
  "1710": "ãĢĤ",
  "1721": "><",
  "1739": "Ð¸",
  "1742": "image",
  "1753": "ision",
  "1795": "fe",
  "1814": "Ġworld",
  "1823": "ideo",
  "1846": "AS",
  "1873": "âĢ¦",
  "1917": "rg",
  "1931": "ced",
  "1944": "box",
  "1959": "ape",
  "1994": "Ġcap",
  "2000": "api",
  "2007": "(x",
  "2044": "Ġret",
  "2054": "ret",
  "2075": "ai",
  "2083": "no",
  "2085": "sp",
  "2093": "Ġca",
  "2103": "tra",
  "2105": "ital",
  "2115": "ÑĢ",
  "2125": "ãģ",
  "2135": "_e",
  "2163": ">(",
  "2175": "Ñģ",
  "2180": "xt",
  "2220": "obj",
  "2246": "response",
  "2304": "rl",
  "2305": "ons",
  "2337": "era",
  "2388": "start",
  "2409": "eturn",
  "2413": "pi",
  "2481": "ta",
  "2491": "ts",
  "2492": "af",
  "2523": "You",
  "2537": "oo",
  "2573": "me",
  "2595": "vis",
  "2631": "ling",
  "2634": "bed",
  "2650": "pons",
  "2664": "pen",
  "2677": "Ġwon",
  "2692": "ari",
  "2703": "ope",
  "2740": "uments",
  "2776": "ĠFr",
  "2887": "do",
  "2927": "à¸",
  "2967": "eb",
  "3139": "ĉt",
  "3179": "ixed",
  "3181": "py",
  "3189": "oper",
  "3201": "iddle",
  "3233": "rt",
  "3267": "na",
  "3293": "ãĤ",
  "3307": "}}",
  "3343": "_se",
  "3433": "Ġspace",
  "3606": "lin",
  "3628": "je",
  "3652": "Ñĥ",
  "3709": "ï¼Į",
  "3754": "ume",
  "3789": "ili",
  "3930": "ASE",
  "3963": "Ġwor",
  "4120": "la",
  "4130": "ĠPar",
  "4132": "Par",
  "4144": "ua",
  "4176": "Ġna",
  "4196": "ĠWorld",
  "4268": "ns",
  "4289": "aced",
  "4311": "Ã¨",
  "4406": "():",
  "4494": "ba",
  "4535": "Ġ{}",
  "4554": "stant",
  "4638": "ello",
  "4640": "Ðº",
  "4660": "can",
  "4747": "_start",
  "4754": "{\"",
  "4759": "_res",
  "4887": "CA",
  "4898": "refix",
  "4960": "ï¼ļ",
  "4967": "ox",
  "5126": "_pr",
  "5174": "ste",
  "5200": "po",
  "5205": "ãĢģ",
  "5248": "cal",
  "5325": "Ãª",
  "5329": "à¤",
  "5350": "/t",
  "5405": "ja",
  "5461": "case",
  "5468": "afe",
  "5498": "men",
  "5565": "fix",
  "5581": "ÂŃ",
  "5724": "Ġou",
  "5776": "ris",
  "5834": "hi",
  "5864": "ala",
  "5876": "bb",
  "5999": "tab",
  "6011": "_en",
  "6018": "_end",
  "6059": "ita",
  "6061": "{}",
  "6115": "ï¼ģ",
  "6122": "si",
  "6154": "mo",
  "6354": "-x",
  "6368": "ran",
  "6387": "pa",
  "6450": "call",
  "6511": "Ġcapital",
  "6515": "emo",
  "6971": ".py",
  "7287": "ima",
  "7313": "ï¼ī",
  "7454": "rate",
  "7508": "ji",
  "7545": "sys",
  "7547": "_ref",
  "7728": "iling",
  "7898": "mi",
  "7901": "à¹",
  "8112": "xe",
  "8389": "help",
  "8426": "endo",
  "8452": "gu",
  "8471": "dl",
  "8481": "space",
  "8572": "ĠÑ",
  "8674": "istan",
  "8678": "system",
  "8814": "ista",
  "9008": "ðŁ",
  "9326": "sn",
  "9338": "ĠFrance",
  "9367": "_response",
  "9406": "ĠFranc",
  "9419": "Hello",
  "9616": "ï¼Ī",
  "9676": "vi",
  "9688": "fi",
  "9691": "video",
  "9699": "rep",
  "9833": "World",
  "10119": "ãĢį",
  "10132": "_pre",
  "10586": "ãĢĲ",
  "10631": "Ġhelpful",
  "10638": "ãĢĳ",
  "10838": "ĠðŁ",
  "10876": "istant",
  "10992": "ï¼Ł",
  "11010": "Ġhel",
  "11018": "cap",
  "11452": "eno",
  "11510": "prefix",
  "11531": "star",
  "11598": "Ġja",
  "11751": "ĠParis",
  "11796": "Ð¹",
  "12044": "nam",
  "12084": "fil",
  "12163": "abb",
  "12256": "à¥",
  "12283": "-k",
  "12512": "ãĢĮ",
  "12640": "vision",
  "12845": "isi",
  "12858": "pad",
  "13042": "_call",
  "13153": "lp",
  "13162": "uffix",
  "13314": "<th",
  "13573": "_prefix",
  "13650": "âĢ¦âĢ¦",
  "13713": "oft",
  "13766": "tool",
  "13868": "ailing",
  "13993": "sis",
  "14064": "argument",
  "14194": "world",
  "14259": "ãģĹ",
  "14351": "Ġhell",
  "14494": "Ġà¤",
  "14556": "hello",
  "14572": "don",
  "14876": "ãģ¯",
  "15220": "ĠPa",
  "15294": ".<",
  "15429": "pf",
  "15486": "lap",
  "15632": "mid",
  "15644": "dot",
  "15889": "arguments",
  "15961": "nce",
  "16034": ".do",
  "16098": "ãģĦ",
  "16223": "ãģ¾",
  "16256": "ÐºÐ¸",
  "17082": "rat",
  "17569": "ĠÑĢ",
  "17701": "resp",
  "18064": "à¹Ī",
  "18521": "_case",
  "18602": "ãģ¨",
  "18858": "vide",
  "19054": "ãģ«",
  "19055": "middle",
  "19160": "ÑĢÑĥ",
  "19236": "à¹ī",
  "19571": "à¸Ļ",
  "19675": "Pa",
  "19816": "/th",
  "19866": "sta",
  "20141": "à¸²",
  "20612": "oj",
  "21480": "ãģĵ",
  "21596": "à¸£",
  "21860": "Fr",
  "21995": "ĠFra",
  "22080": ".dot",
  "22147": "sy",
  "22547": "à¸±",
  "22743": "repo",
  "22996": "Ġwo",
  "23066": "Ġhello",
  "23121": "à¤¾",
  "23256": "_cal",
  "23274": "stan",
  "23543": "cas",
  "23719": "tu",
  "23834": "esp",
  "23836": "eo",
  "24008": "ãĤĵ",
  "24178": "ï¼Ľ",
  "24273": "ãĢĭ",
  "24400": "à¸ģ",
  "25443": "à¸¡",
  "25587": ")<",
  "25883": "tar",
  "25930": "suffix",
  "26003": "think",
  "26039": "oji",
  "26076": "ãĢĬ",
  "26183": "su",
  "26379": "ĠWo",
  "26718": "ãģŁ",
  "26986": "à¹Ģ",
  "26994": "umen",
  "27076": "Ġà",
  "27110": "imag",
  "27116": "_sn",
  "27129": "sep",
  "27340": ">x",
  "27399": "à¸µ",
  "28640": "à¥į",
  "29302": "_pad",
  "29403": "Ġspa",
  "29444": "à¸ĩ",
  "29510": "mag",
  "29554": "pref",
  "29779": "à¸´",
  "29818": "ĠFran",
  "30226": ":<",
  "30450": "\"name",
  "30571": "quad",
  "30642": "_star",
  "30739": "à¸¥",
  "30796": "etur",
  "31358": "/to",
  "31394": "assis",
  "31510": "pit",
  "31542": "fu",
  "31628": "Hel",
  "32241": "tex",
  "32977": "rance",
  "33228": "à¥ĩ",
  "33364": "à¸¢",
  "33996": "_resp",
  "34361": "ĠWor",
  "34445": "rn",
  "34469": "à¸ª",
  "34481": "ãĢı",
  "34566": "bj",
  "34694": "à¸Ĺ",
  "34932": "too",
  "34947": "à¸ļ",
  "35804": "à¸Ķ",
  "35920": "_suffix",
  "35982": "à¸§",
  "36280": "emoji",
  "37565": "à¤¿",
  "37875": "à¸«",
  "38534": "à¸ķ",
  "38991": "à¸Ħ",
  "39034": "CASE",
  "39963": ">s",
  "40183": "hin",
  "40211": "à¸¹",
  "40479": "aris",
  "40506": "Mi",
  "40958": "Ġemoji",
  "41004": "ãģ¡",
  "41455": "nak",
  "41635": "ÑĥÑģ",
  "41900": "_pref",
  "42081": "ãĢİ",
  "42201": "à¥Ģ",
  "42284": "_mid",
  "42381": "qua",
  "42387": "Ð¸Ð¹",
  "42424": ">a",
  "42710": "à¤°",
  "43454": "pac",
  "44135": "ssi",
  "44740": "¹Ħ",
  "45596": "à¸µà¹Ī",
  "45799": "ķĮ",
  "46054": "à¸¸",
  "46103": "jal",
  "46133": "bab",
  "46215": "Ġà¤ķ",
  "47358": "France",
  "47473": "hel",
  "47772": "nk",
  "47933": "_ca",
  "47993": "Ġnaive",
  "48037": "wor",
  "48083": "à¹Ħ",
  "49165": "tal",
  "49250": "assist",
  "49593": "xed",
  "49677": ">b",
  "50305": "Ġcapita",
  "50554": "mage",
  "50820": "tan",
  "51993": "ffi",
  "52830": "won",
  "52846": "à¸Ľ",
  "52933": "_sep",
  "53613": "_pa",
  "53900": "à¹Į",
  "54210": "hell",
  "54452": ">c",
  "54797": "\"a",
  "56133": "Mix",
  "56196": "ĉtab",
  "56649": "_na",
  "56684": "erate",
  "57590": "Paris",
  "58069": "à¤¨",
  "58373": "Ġcapit",
  "58375": "tant",
  "58379": "à¸Ī",
  "60470": "_middle",
  "60527": "|r",
  "60638": "<t",
  "60648": "Wo",
  "61182": "fte",
  "61522": "thin",
  "61674": "Ġspaced",
  "61910": "bbe",
  "61924": "stem",
  "62516": "à¤ķ",
  "62535": "Yo",
  "62551": "à¹Īà¸²",
  "62847": "ÑģÐº",
  "62865": "capital",
  "63078": "ãĢįãģ¨",
  "63161": "tur",
  "63462": "nts",
  "65573": "rai",
  "66233": "paced",
  "66423": "ãģĵãĤĵ",
  "66469": "caf",
  "68359": "eba",
  "68733": ">d",
  "68888": "à¹ģ",
  "69687": "snake",
  "69811": "à¸°",
  "69858": "à¤Ĥ",
  "70184": "à¥ģ",
  "70712": "jec",
  "71876": ">r",
  "72473": "/tool",
  "72763": "Fran",
  "72790": "ðŁĺ",
  "73052": "rail",
  "73374": "Ġjal",
  "74455": "assistant",
  "75210": "trail",
  "75381": "Fra",
  "75681": "à¤¸",
  "75685": "ddl",
  "76306": "ÑģÐºÐ¸",
  "76402": "perate",
  "76519": "à¤¤",
  "77195": "_sta",
  "77526": "Hell",
  "77560": "Franc",
  "78732": "assi",
  "78776": "respons",
  "79790": "Ġ<|",
  "79999": "spo",
  "80409": "à¹ĩ",
  "80665": "à¸±à¸ļ",
  "80752": "Ġà¤ª",
  "81399": "Ġà¤¹",
  "81727": "midd",
  "81869": "à¸ľ",
  "82110": "à¸´à¸Ļ",
  "82260": "operate",
  "82357": "ixe",
  "82561": "ãģ¡ãģ¯",
  "83044": "_mi",
  "83188": "à¤ª",
  "83364": "à¸ĵ",
  "83445": "Mixed",
  "83552": "ãģĵãĤĵãģ«",
  "83932": "!<",
  "84237": "à¤®",
  "84500": "CAS",
  "85951": "ãģĵãĤĵãģ«ãģ¡ãģ¯",
  "86129": "spa",
  "86144": "ndo",
  "86835": "_su",
  "87277": "dle",
  "88077": "Ġà¤®",
  "89891": "Ġemo",
  "90703": "à¤¹",
  "91157": "etu",
  "91248": "deo",
  "92811": "|i",
  "92845": "\"f",
  "95582": "Ġspac",
  "95724": "ä¸",
  "95725": "çļ",
  "95726": "çļĦ",
  "95727": "äº",
  "95729": "æľ",
  "95733": "å®",
  "95735": "ä½",
  "95736": "è¿",
  "95738": "çĶ",
  "95741": "æĺ",
  "95742": "è¯",
  "95744": "ä¸Ģ",
  "95745": "æĸ",
  "95748": "æĪ",
  "95752": "åĽ",
  "95754": "æī",
  "95755": "æĹ",
  "95761": "æĺ¯",
  "95784": "åĨ",
  "95785": "å¥",
  "95789": "ä¸Ń",
  "95795": "çī",
  "95801": "æ³",
  "95818": "æµ",
  "95819": "æŃ",
  "95826": "çĶ¨",
  "95834": "éĺ",
  "95837": "æĦ",
  "95840": "ä¸ª",
  "95843": "ç«",
  "95849": "ä¸ĭ",
  "95854": "è¿Ļ",
  "95873": "æĪĲ",
  "95879": "æľ¬",
  "95887": "å¥½",
  "95898": "ç¬",
  "95905": "æĸĩ",
  "95920": "è°",
  "95933": "ä½ł",
  "95971": "æĹ¥",
  "95981": "æĦı",
  "95986": "ä¸ī",
  "95996": "æīĭ",
  "96025": "ç¬¬",
  "96053": "äºĮ",
  "96058": "è¨",
  "96064": "çķ",
  "96125": "ä¸Ģä¸ª",
  "96188": "æ³¨",
  "96220": "è¯·",
  "96244": "æĪ·",
  "96274": "èª",
  "96276": "æŃ¥",
  "96278": "ä¸ĸ",
  "96301": "åĽĽ",
  "96306": "å®Į",
  "96316": "è¯ķ",
  "96391": "çīĪ",
  "96393": "è¨Ģ",
  "96410": "ç«ł",
  "96418": "çķĮ",
  "96451": "è¯»",
  "96456": "æĺ¯ä¸Ģ",
  "96622": "æµĭ",
  "96691": "éĺħ",
  "96747": "å¥½çļĦ",
  "96748": "ä¸ĸçķĮ",
  "96864": "ç¬¬äºĮ",
  "96991": "ä¸ĢæŃ¥",
  "97021": "åĨĮ",
  "97075": "éĺħè¯»",
  "97084": "è°¢",
  "97120": "æ³¨æĦı",
  "97235": "å®ĮæĪĲ",
  "97237": "çĶ¨æĪ·",
  "97242": "ç¬¬ä¸ī",
  "97988": "è¿Ļæĺ¯",
  "98005": "ä¸ĭä¸Ģ",
  "98267": "æĺ¯ä¸Ģä¸ª",
  "98312": "ç¬¬åĽĽ",
  "98823": "æĹ¥æľ¬",
  "99449": "æµĭè¯ķ",
  "99986": "ä¸Ńæĸĩ",
  "100035": "è°¢è°¢",
  "101127": "èªŀ",
  "104749": "è¿Ļæĺ¯ä¸Ģ",
  "109226": "ä¸ĭä¸ĢæŃ¥",
  "109266": "ä½łå¥½",
  "109455": "è¿Ļæĺ¯ä¸Ģä¸ª",
  "109481": "æīĭåĨĮ",
  "117773": "ç¬¬ä¸īç«ł",
  "119646": "ç¬¬åĽĽç«ł",
  "148285": "à¸Ĺà¸µà¹Ī",
  "148289": "à¸£à¸°",
  "148291": "à¸²à¸¡",
  "148307": "à¸²à¸Ļ",
  "148316": "à¸į",
  "148320": "à¸©",
  "148322": "à¸ł",
  "148323": "à¸Ħà¸£",
  "148328": "à¸±à¸ģ",
  "148329": "à¸Ľà¸£à¸°",
  "148344": "ãģĹãģŁ",
  "148345": "à¹ĩà¸Ļ",
  "148346": "à¹Ģà¸Ľ",
  "148349": "Ġà¹ģ",
  "148355": "à¤¯",
  "148363": "à¸Ķà¹ī",
  "148371": "à¸£à¸²",
  "148398": "à¸¡à¸²",
  "148422": "à¹Ħà¸Ķà¹ī",
  "148423": "à¹Ģà¸Ľà¹ĩà¸Ļ",
  "148437": "ãģ¾ãģĹãģŁ",
  "148438": "à¸¹à¹ī",
  "148450": "à¸¡à¸µ",
  "148456": "à¸£à¸±à¸ļ",
  "148465": "à¥įà¤¯",
  "148480": "à¸£à¸±",
  "148481": "à¤µ",
  "148482": "à¸¥à¸°",
  "148484": "à¸§à¸¢",
  "148486": "à¸łà¸²",
  "148514": "à¥įà¤°",
  "148586": "à¸£à¸£",
  "148598": "à¸Ķà¸µ",
  "148651": "à¤¦",
  "148664": "à¸ľà¸¹à¹ī",
  "148697": "à¸§à¸±",
  "148733": "Ġà¸ļ",
  "148736": "à¹Īà¸²à¸Ļ",
  "148799": "Ġà¤¦",
  "148818": "à¸Ĺà¸¢",
  "148840": "à¸²à¸Ħ",
  "148861": "Ġà¤ľ",
  "148866": "à¸ķà¹Į",
  "148931": "à¤ı",
  "148959": "Ġà¤µ",
  "148978": "à¥Ī",
  "149020": "à¸Ľà¸£",
  "149050": "à¤·",
  "149051": "à¹ģà¸¥",
  "149082": "à¸ªà¸Ķ",
  "149106": "à¤ľ",
  "149119": "à¹ģà¸¥à¸°",
  "149122": "ĠÑĢÑĥ",
  "149142": "Ġà¤Ĩ",
  "149153": "à¥įà¤¯à¤¾",
  "149293": "à¸Ĺà¸µ",
  "149308": "à¸´à¸ĩ",
  "149324": "Ġà¸¢",
  "149370": "à¤£",
  "149439": "à¤¾à¤¨",
  "149537": "ÐºÐ¸Ð¹",
  "149567": "à¤ķà¥į",
  "149575": "à¸±à¸ª",
  "149580": "à¸¢à¸¸",
  "149647": "à¸©à¸²",
  "149663": "ÑģÑģ",
  "149800": "ÑģÐºÐ¸Ð¹",
  "149826": "à¹Ħà¸Ĺà¸¢",
  "149832": "ãģĦãģ¾ãģĹãģŁ",
  "149835": "à¸£à¸¹à¹ī",
  "150015": "Ġà¹ģà¸¥à¸°",
  "150104": "à¤¸à¥į",
  "150118": "ãģ¨è¨Ģ",
  "150127": "à¤¨à¥į",
  "150250": "à¤¯à¤¾",
  "150422": "à¤¤à¥įà¤°",
  "150562": "à¸Ħà¸²",
  "150705": "à¤µà¤¾",
  "150707": "à¸¸à¸ģ",
  "150929": "à¥ĩà¤Ĥ",
  "151356": "à¤ł",
  "151442": "à¸²à¸Ĺ",
  "151663": "ebab",
  "151831": "ĠÑĢÑĥÑģ",
  "151858": "à¤ķà¥įà¤·",
  "151944": "à¸§à¸£à¸£",
  "152227": "à¸£à¸²à¸Ħà¸²",
  "152369": "à¸¡à¸²à¸ĵ",
  "152528": "ÑĢÑĥÑģ",
  "152543": "à¤¤à¥į",
  "152691": "à¤¿à¤¯à¤¾",
  "152825": "à¸łà¸²à¸©",
  "152845": "à¸ľà¸¹",
  "153266": "Ġà¤ı",
  "153295": "à¸Ħà¸£à¸±à¸ļ",
  "153348": "à¤¤à¥ĩ",
  "153357": "à¥Īà¤Ĥ",
  "153416": "à¸Ĺà¹Īà¸²à¸Ļ",
  "153503": "à¤¿à¤¯",
  "153657": "à¸ļà¸²à¸Ĺ",
  "153769": "à¸«à¸į",
  "153871": "à¸łà¸²à¸©à¸²",
  "153955": "à¸ĩà¸²à¸¡",
  "154234": "à¸Īà¸±",
  "154447": "à¸§à¸±à¸ªà¸Ķ",
  "154845": "à¥¤",
  "154848": "à¤Ĩ",
  "155002": "à¤ŀ",
  "155171": "Ġà¤ªà¤°",
  "155379": "à¤°à¥Ģ",
  "155569": "Ġà¤Ĩà¤ª",
  "155660": "à¸ªà¸§à¸¢",
  "156167": "à¹Ħà¸Ķ",
  "157404": "espo",
  "157425": "à¸¢à¸´à¸Ļ",
  "157451": "à¥įà¤·",
  "157859": "jala",
  "158688": "à¸§à¸±à¸ª",
  "158728": "à¸¢à¸¸à¸ģ",
  "158998": "¼Ī",
  "159192": "Ġà¤Ķ",
  "159504": "à¸Īà¸±à¸ģ",
  "159673": "à¸Ľà¸£à¸°à¸¡à¸²à¸ĵ",
  "159958": "à¸«à¸įà¸´à¸ĩ",
  "160828": "yste",
  "160840": "ãĤĵãģ«",
  "161520": "à¤¨à¤¿",
  "162566": "à¸ªà¸§à¸¢à¸ĩà¸²à¸¡",
  "163512": "ĠPari",
  "164120": "pital",
  "164163": "à¸£à¸²à¸Ħ",
  "164567": "à¤łà¥Ģ",
  "165216": "Ġà¤ķà¥įà¤·",
  "165249": "à¸§à¸£à¸£à¸ĵ",
  "167144": "à¥įà¤ŀ",
  "168607": "à¸§à¸±à¸ªà¸Ķà¸µ",
  "168921": "à¸¢à¸¸à¸ģà¸ķà¹Į",
  "168967": "à¤Ķ",
  "169706": "ðŁĺĢ",
  "170046": "Ġà¤¹à¥Ī",
  "170160": "à¸Ħà¸£à¸±",
  "170239": "Ġà¤®à¥ĩà¤Ĥ",
  "170729": "Ġà¤Ķà¤°",
  "171094": "Ġà¤¹à¥Īà¤Ĥ",
  "171327": "Ġà¸ļà¸²à¸Ĺ",
  "171549": "Ġà¤ıà¤ķ",
  "172915": "Ġà¤µà¤¾",
  "174453": "à¸ļà¸²",
  "175923": "à¸£à¸¹",
  "177421": "à¸Ĺà¹Īà¸²",
  "177433": "à¸£à¸¹à¹īà¸Īà¸±à¸ģ",
  "177453": "à¤¦à¥Ģ",
  "177879": "à¸Ĺà¸µà¹Īà¹Ħà¸Ķà¹ī",
  "178107": "pera",
  "178556": "à¤¸à¥įà¤¤",
  "179551": "ãĤĵãģ«ãģ¡ãģ¯",
  "180999": "Ġretur",
  "181077": "à¤¿à¤¨",
  "182309": "opera",
  "182644": "Ġà¹ģà¸¥à¸°à¸¡à¸µ",
  "183174": "Ġà¤®à¥ĩ",
  "184169": "à¤®à¥ĩà¤Ĥ",
  "184642": "Ġà¤¦à¥ģ",
  "184672": "à¹ģà¸¥à¸°à¸¡à¸µ",
  "185011": "nai",
  "186339": "à¤®à¥ĩ",
  "187417": "è¨ĢãģĦ",
  "188062": "onse",
  "188487": "ãģĦãģ¾",
  "189389": "à¸ľà¸¹à¹īà¸«à¸įà¸´à¸ĩ",
  "191959": "à¤¨à¥įà¤¦",
  "193520": "Ġà¤ł",
  "193953": "alap",
  "194666": "ilin",
  "196965": "à¥įà¤¤",
  "197898": "Ġà¸ļà¸²",
  "198380": "erat",
  "198839": "ranc",
  "200176": "Ġà¤ķà¥įà¤¯à¤¾",
  "200369": "à¤ªà¤°",
  "201822": "keb",
  "203307": "à¹Ħà¸Ĺ",
  "211075": "ĠÑĢÑĥÑģÑģÐºÐ¸Ð¹",
  "211956": "à¸²à¸Ĺà¸µ",
  "215232": "à¸¢à¸´à¸Ļà¸Ķà¸µ",
  "215989": "à¤¹à¤¿",
  "217416": "à¤ľà¥įà¤ŀ",
  "227727": "à¸Ĺà¸µà¹Īà¸ªà¸§à¸¢à¸ĩà¸²à¸¡",
  "229936": "à¸łà¸²à¸©à¸²à¹Ħà¸Ĺà¸¢",
  "230604": "tart",
  "233560": "à¸§à¸£",
  "233583": "Ġcapi",
  "235886": "à¤¨à¤¿à¤¯à¤¾",
  "238883": "Ġnai",
  "239508": "ãģ¾ãģĹ",
  "242749": "à¤ķà¥įà¤·à¤£",
  "244288": "fim",
  "246570": "pful",
  "247359": "æĹ¥æľ¬èªŀ",
  "247943": "ãģ¨è¨ĢãģĦ",
  "248044": "<|endoftext|>",
  "248045": "<|im_start|>",
  "248046": "<|im_end|>",
  "248047": "<|object_ref_start|>",
  "248048": "<|object_ref_end|>",
  "248049": "<|box_start|>",
  "248050": "<|box_end|>",
  "248051": "<|quad_start|>",
  "248052": "<|quad_end|>",
  "248053": "<|vision_start|>",
  "248054": "<|vision_end|>",
  "248055": "<|vision_pad|>",
  "248056": "<|image_pad|>",
  "248057": "<|video_pad|>",
  "248058": "<tool_call>",
  "248059": "</tool_call>",
  "248060": "<|fim_prefix|>",
  "248061": "<|fim_middle|>",
  "248062": "<|fim_suffix|>",
  "248063": "<|fim_pad|>",
  "248064": "<|repo_name|>",
  "248065": "<|file_sep|>",
  "248066": "<tool_response>",
  "248067": "</tool_response>",
  "248068": "<think>",
  "248069": "</think>"
 },
 "config_tokens": {
  "248070": "<|audio_start|>",
  "248071": "<|audio_end|>",
  "248072": "<tts_pad>",
  "248073": "<tts_text_bos>",
  "248074": "<tts_text_eod>",
  "248075": "<tts_text_bos_single>",
  "248076": "<|audio_pad|>"
 },
 "token_types": {
  "248044": 3,
  "248045": 3,
  "248046": 3,
  "248047": 3,
  "248048": 3,
  "248049": 3,
  "248050": 3,
  "248051": 3,
  "248052": 3,
  "248053": 3,
  "248054": 3,
  "248055": 3,
  "248056": 3,
  "248057": 3,
  "248058": 4,
  "248059": 4,
  "248060": 3,
  "248061": 3,
  "248062": 3,
  "248063": 3,
  "248064": 3,
  "248065": 3,
  "248066": 4,
  "248067": 4,
  "248068": 4,
  "248069": 4,
  "248070": 3,
  "248071": 3,
  "248072": 3,
  "248073": 3,
  "248074": 3,
  "248075": 3,
  "248076": 3
 },
 "merges": [
  "Ġ Ġ",
  "ĠĠ ĠĠ",
  "i n",
  "ĠĠĠĠ ĠĠĠĠ",
  "e r",
  "ĠĠ Ġ",
  "o n",
  "Ġ a",
  "r e",
  "a t",
  "s t",
  "e n",
  "o r",
  "Ċ Ċ",
  "Ġ c",
  "l e",
  "Ġ s",
  "i t",
  "a n",
  "a r",
  "a l",
  "Ġ f",
  "o u",
  "i s",
  "ĠĠĠĠ ĠĠĠ",
  "in g",
  "e s",
  "Ġ w",
  "i on",
  "e d",
  "e t",
  "Ġ o",
  "a s",
  "e l",
  "c t",
  "n d",
  "Ġ h",
  "en t",
  "i d",
  "Ġ n",
  "a m",
  "Ġ re",
  "Ġ {",
  "Ġo f",
  "i m",
  "Ġ (",
  "i l",
  "Ġa nd",
  "u r",
  "s e",
  "e x",
  "a d",
  "Ġ \"",
  "u t",
  "i f",
  "e m",
  "o l",
  "t h",
  "i v",
  "c e",
  "at e",
  "a g",
  "o t",
  "u s",
  "u l",
  "Ġ <",
  "( )",
  "a b",
  "u m",
  "am e",
  "Ġ is",
  "p e",
  "t r",
  "â Ģ",
  "i st",
  "h e",
  "Ġ e",
  "l o",
  "a p",
  "Ġ P",
  "as s",
  "ur n",
  "n t",
  "en d",
  "ou t",
  "t urn",
  "ĠĠĠĠ Ġ",
  "re s",
  "Ġ if",
  "ag e",
  "ex t",
  "Ġ F",
  "Ġ r",
  "an d",
  "e ct",
  "k e",
  "q u",
  "d e",
  "o p",
  "i le",
  "Ġa n",
  "r i",
  "Ġ W",
  "Ġre turn",
  "ar t",
  "m ent",
  "Ġ -",
  "\" ,",
  "Ġ j",
  "l d",
  "an t",
  "as e",
  "< /",
  "Ġa re",
  "iv e",
  "al l",
  "f f",
  "a re",
  ". p",
  "o k",
  "Ġh e",
  "id e",
  "a ce",
  "a c",
  "j ect",
  "a k",
  "v e",
  "y st",
  "Ġ i",
  "a il",
  "n ame",
  "yst em",
  "el l",
  "p on",
  "_ p",
  "d d",
  "_ s",
  "Ġc an",
  "p r",
  "l l",
  "t e",
  "_ c",
  "o b",
  "an ce",
  "re turn",
  "Ġ out",
  "g e",
  "p er",
  "_ m",
  "f t",
  "a ke",
  "Ġ im",
  "l i",
  "e p",
  "b o",
  "de f",
  "e c",
  "in k",
  "s s",
  "T he",
  "\" :",
  "Ġa r",
  "s er",
  "b ject",
  "ent s",
  "u se",
  "i o",
  "e f",
  "Ġ x",
  "ar g",
  "Ġ >",
  "t em",
  "us er",
  "c a",
  "S E",
  "i x",
  "' t",
  ". d",
  "r a",
  "Ã ©",
  "n g",
  "Ġ em",
  "Ġs p",
  "ĠĠĠĠ ĠĠ",
  "t o",
  "T h",
  "c o",
  "n c",
  "pon se",
  "y s",
  "o f",
  "_ n",
  "re f",
  "um ent",
  "w o",
  "an c",
  "f ile",
  "_ st",
  "f ul",
  "el p",
  "_ name",
  "ã Ģ",
  "_ re",
  "v id",
  "p ace",
  "t ext",
  "u ff",
  "ment s",
  "b e",
  "or ld",
  "Ġh elp",
  "H e",
  "ï ¼",
  ") :",
  "ob ject",
  "u f",
  "_ r",
  "p re",
  "m a",
  "o ol",
  "id d",
  "ãĢ Ĥ",
  "> <",
  "Ð ¸",
  "im age",
  "is ion",
  "f e",
  "Ġw orld",
  "ide o",
  "A S",
  "âĢ ¦",
  "r g",
  "c ed",
  "bo x",
  "a pe",
  "Ġc ap",
  "ap i",
  "( x",
  "Ġre t",
  "re t",
  "a i",
  "n o",
  "s p",
  "Ġc a",
  "tr a",
  "it al",
  "Ñ Ģ",
  "ã ģ",
  "_ e",
  "> (",
  "Ñ ģ",
  "x t",
  "ob j",
  "res ponse",
  "r l",
  "on s",
  "er a",
  "st art",
  "et urn",
  "p i",
  "t a",
  "t s",
  "a f",
  "Y ou",
  "o o",
  "m e",
  "v is",
  "l ing",
  "b ed",
  "pon s",
  "p en",
  "Ġw on",
  "ar i",
  "o pe",
  "um ents",
  "ĠF r",
  "d o",
  "à ¸",
  "e b",
  "ĉ t",
  "ix ed",
  "p y",
  "op er",
  "idd le",
  "r t",
  "n a",
  "ã Ĥ",
  "} }",
  "_ se",
  "Ġsp ace",
  "l in",
  "j e",
  "Ñ ĥ",
  "ï¼ Į",
  "um e",
  "il i",
  "A SE",
  "Ġw or",
  "l a",
  "ĠP ar",
  "P ar",
  "u a",
  "Ġn a",
  "ĠW orld",
  "n s",
  "ac ed",
  "Ã ¨",
  "() :",
  "b a",
  "Ġ{ }",
  "st ant",
  "el lo",
  "Ð º",
  "c an",
  "_st art",
  "{ \"",
  "_ res",
  "C A",
  "ref ix",
  "ï¼ ļ",
  "o x",
  "_p r",
  "st e",
  "p o",
  "ãĢ ģ",
  "c al",
  "Ã ª",
  "à ¤",
  "/ t",
  "j a",
  "c ase",
  "a fe",
  "m en",
  "f ix",
  "Â Ń",
  "Ġ ou",
  "r is",
  "h i",
  "al a",
  "b b",
  "t ab",
  "_ en",
  "_ end",
  "it a",
  "{ }",
  "ï¼ ģ",
  "s i",
  "m o",
  "- x",
  "r an",
  "p a",
  "c all",
  "Ġcap ital",
  "em o",
  ".p y",
  "im a",
  "ï¼ ī",
  "r ate",
  "j i",
  "s ys",
  "_ ref",
  "il ing",
  "m i",
  "à ¹",
  "x e",
  "h elp",
  "end o",
  "g u",
  "d l",
  "s pace",
  "Ġ Ñ",
  "ist an",
  "s ystem",
  "ist a",
  "ð Ł",
  "s n",
  "ĠFr ance",
  "_ response",
  "ĠFr anc",
  "H ello",
  "ï¼ Ī",
  "v i",
  "f i",
  "v ideo",
  "re p",
  "W orld",
  "ãĢ į",
  "_p re",
  "ãĢ Ĳ",
  "Ġhelp ful",
  "ãĢ ĳ",
  "Ġ ðŁ",
  "ist ant",
  "ï¼ Ł",
  "Ġh el",
  "c ap",
  "en o",
  "p refix",
  "st ar",
  "Ġj a",
  "ĠPar is",
  "Ð ¹",
  "n am",
  "f il",
  "ab b",
  "à ¥",
  "- k",
  "ãĢ Į",
  "v ision",
  "is i",
  "p ad",
  "_c all",
  "l p",
  "uff ix",
  "< th",
  "_p refix",
  "âĢ¦ âĢ¦",
  "o ft",
  "to ol",
  "ail ing",
  "s is",
  "arg ument",
  "w orld",
  "ãģ Ĺ",
  "Ġh ell",
  "Ġ à¤",
  "h ello",
  "d on",
  "ãģ ¯",
  "ĠP a",
  ". <",
  "p f",
  "l ap",
  "m id",
  "d ot",
  "arg uments",
  "n ce",
  ".d o",
  "ãģ Ħ",
  "ãģ ¾",
  "Ðº Ð¸",
  "r at",
  "Ġ ÑĢ",
  "res p",
  "à¹ Ī",
  "_c ase",
  "ãģ ¨",
  "v ide",
  "ãģ «",
  "m iddle",
  "ÑĢ Ñĥ",
  "à¹ ī",
  "à¸ Ļ",
  "P a",
  "/ th",
  "st a",
  "à¸ ²",
  "o j",
  "ãģ ĵ",
  "à¸ £",
  "F r",
  "ĠF ra",
  ".d ot",
  "s y",
  "à¸ ±",
  "re po",
  "Ġw o",
  "Ġh ello",
  "à¤ ¾",
  "_c al",
  "st an",
  "c as",
  "t u",
  "es p",
  "e o",
  "ãĤ ĵ",
  "ï¼ Ľ",
  "ãĢ ĭ",
  "à¸ ģ",
  "à¸ ¡",
  ") <",
  "t ar",
  "s uffix",
  "th ink",
  "o ji",
  "ãĢ Ĭ",
  "s u",
  "ĠW o",
  "ãģ Ł",
  "à¹ Ģ",
  "um en",
  "Ġ à",
  "im ag",
  "_s n",
  "se p",
  "> x",
  "à¸ µ",
  "à¥ į",
  "_p ad",
  "Ġsp a",
  "à¸ ĩ",
  "m ag",
  "p ref",
  "à¸ ´",
  "ĠFr an",
  ": <",
  "\" name",
  "qu ad",
  "_st ar",
  "à¸ ¥",
  "et ur",
  "/ to",
  "ass is",
  "p it",
  "f u",
  "H el",
  "t ex",
  "r ance",
  "à¥ ĩ",
  "à¸ ¢",
  "_res p",
  "ĠW or",
  "r n",
  "à¸ ª",
  "ãĢ ı",
  "b j",
  "à¸ Ĺ",
  "to o",
  "à¸ ļ",
  "à¸ Ķ",
  "_s uffix",
  "à¸ §",
  "emo ji",
  "à¤ ¿",
  "à¸ «",
  "à¸ ķ",
  "à¸ Ħ",
  "C ASE",
  "> s",
  "h in",
  "à¸ ¹",
  "ar is",
  "M i",
  "Ġem oji",
  "ãģ ¡",
  "n ak",
  "Ñĥ Ñģ",
  "_p ref",
  "ãĢ İ",
  "à¥ Ģ",
  "_m id",
  "qu a",
  "Ð¸ Ð¹",
  "> a",
  "à¤ °",
  "p ac",
  "ss i",
  "¹ Ħ",
  "à¸µ à¹Ī",
  "ķ Į",
  "à¸ ¸",
  "j al",
  "b ab",
  "Ġà¤ ķ",
  "Fr ance",
  "h el",
  "n k",
  "_c a",
  "Ġna ive",
  "w or",
  "à¹ Ħ",
  "t al",
  "ass ist",
  "x ed",
  "> b",
  "Ġcap ita",
  "m age",
  "t an",
  "ff i",
  "w on",
  "à¸ Ľ",
  "_se p",
  "_p a",
  "à¹ Į",
  "h ell",
  "> c",
  "\" a",
  "M ix",
  "ĉt ab",
  "_n a",
  "er ate",
  "Par is",
  "à¤ ¨",
  "Ġcap it",
  "t ant",
  "à¸ Ī",
  "_m iddle",
  "| r",
  "< t",
  "W o",
  "f te",
  "th in",
  "Ġsp aced",
  "b be",
  "st em",
  "à¤ ķ",
  "Y o",
  "à¹Ī à¸²",
  "Ñģ Ðº",
  "cap ital",
  "ãĢį ãģ¨",
  "t ur",
  "nt s",
  "ra i",
  "p aced",
  "ãģĵ ãĤĵ",
  "ca f",
  "eb a",
  "> d",
  "à¹ ģ",
  "sn ake",
  "à¸ °",
  "à¤ Ĥ",
  "à¥ ģ",
  "j ec",
  "> r",
  "/ tool",
  "F ran",
  "ðŁ ĺ",
  "r ail",
  "Ġj al",
  "ass istant",
  "tr ail",
  "F ra",
  "à¤ ¸",
  "dd l",
  "Ñģ ÐºÐ¸",
  "per ate",
  "à¤ ¤",
  "_st a",
  "H ell",
  "Fr anc",
  "ass i",
  "res pons",
  "Ġ< |",
  "sp o",
  "à¹ ĩ",
  "à¸± à¸ļ",
  "Ġà¤ ª",
  "Ġà¤ ¹",
  "m idd",
  "à¸ ľ",
  "à¸´ à¸Ļ",
  "oper ate",
  "ix e",
  "ãģ¡ ãģ¯",
  "_m i",
  "à¤ ª",
  "à¸ ĵ",
  "M ixed",
  "ãģĵãĤĵ ãģ«",
  "! <",
  "à¤ ®",
  "C AS",
  "ãģĵãĤĵãģ« ãģ¡ãģ¯",
  "sp a",
  "nd o",
  "_s u",
  "d le",
  "Ġà¤ ®",
  "Ġem o",
  "à¤ ¹",
  "et u",
  "de o",
  "| i",
  "\" f",
  "Ġsp ac",
  "ä ¸",
  "ç ļ",
  "çļ Ħ",
  "ä º",
  "æ ľ",
  "å ®",
  "ä ½",
  "è ¿",
  "ç Ķ",
  "æ ĺ",
  "è ¯",
  "ä¸ Ģ",
  "æ ĸ",
  "æ Ī",
  "å Ľ",
  "æ ī",
  "æ Ĺ",
  "æĺ ¯",
  "å Ĩ",
  "å ¥",
  "ä¸ Ń",
  "ç ī",
  "æ ³",
  "æ µ",
  "æ Ń",
  "çĶ ¨",
  "é ĺ",
  "æ Ħ",
  "ä¸ ª",
  "ç «",
  "ä¸ ĭ",
  "è¿ Ļ",
  "æĪ Ĳ",
  "æľ ¬",
  "å¥ ½",
  "ç ¬",
  "æĸ ĩ",
  "è °",
  "ä½ ł",
  "æĹ ¥",
  "æĦ ı",
  "ä¸ ī",
  "æī ĭ",
  "ç¬ ¬",
  "äº Į",
  "è ¨",
  "ç ķ",
  "ä¸Ģ ä¸ª",
  "æ³ ¨",
  "è¯ ·",
  "æĪ ·",
  "è ª",
  "æŃ ¥",
  "ä¸ ĸ",
  "åĽ Ľ",
  "å® Į",
  "è¯ ķ",
  "çī Ī",
  "è¨ Ģ",
  "ç« ł",
  "ç ķĮ",
  "è¯ »",
  "æĺ¯ ä¸Ģ",
  "æµ ĭ",
  "éĺ ħ",
  "å¥½ çļĦ",
  "ä¸ĸ çķĮ",
  "ç¬¬ äºĮ",
  "ä¸Ģ æŃ¥",
  "åĨ Į",
  "éĺħ è¯»",
  "è° ¢",
  "æ³¨ æĦı",
  "å®Į æĪĲ",
  "çĶ¨ æĪ·",
  "ç¬¬ ä¸ī",
  "è¿Ļ æĺ¯",
  "ä¸ĭ ä¸Ģ",
  "æĺ¯ ä¸Ģä¸ª",
  "ç¬¬ åĽĽ",
  "æĹ¥ æľ¬",
  "æµĭ è¯ķ",
  "ä¸Ń æĸĩ",
  "è°¢ è°¢",
  "èª ŀ",
  "è¿Ļ æĺ¯ä¸Ģ",
  "ä¸ĭ ä¸ĢæŃ¥",
  "ä½ł å¥½",
  "è¿Ļæĺ¯ ä¸Ģä¸ª",
  "æīĭ åĨĮ",
  "ç¬¬ä¸ī ç«ł",
  "ç¬¬åĽĽ ç«ł",
  "à¸Ĺ à¸µà¹Ī",
  "à¸£ à¸°",
  "à¸² à¸¡",
  "à¸² à¸Ļ",
  "à¸ į",
  "à¸ ©",
  "à¸ ł",
  "à¸Ħ à¸£",
  "à¸± à¸ģ",
  "à¸Ľ à¸£à¸°",
  "ãģĹ ãģŁ",
  "à¹ĩ à¸Ļ",
  "à¹Ģ à¸Ľ",
  "Ġ à¹ģ",
  "à¤ ¯",
  "à¸Ķ à¹ī",
  "à¸£ à¸²",
  "à¸¡ à¸²",
  "à¹Ħ à¸Ķà¹ī",
  "à¹Ģà¸Ľ à¹ĩà¸Ļ",
  "ãģ¾ ãģĹãģŁ",
  "à¸¹ à¹ī",
  "à¸¡ à¸µ",
  "à¸£ à¸±à¸ļ",
  "à¥į à¤¯",
  "à¸£ à¸±",
  "à¤ µ",
  "à¸¥ à¸°",
  "à¸§ à¸¢",
  "à¸ł à¸²",
  "à¥į à¤°",
  "à¸£ à¸£",
  "à¸Ķ à¸µ",
  "à¤ ¦",
  "à¸ľ à¸¹à¹ī",
  "à¸§ à¸±",
  "Ġ à¸ļ",
  "à¹Īà¸² à¸Ļ",
  "Ġà¤ ¦",
  "à¸Ĺ à¸¢",
  "à¸² à¸Ħ",
  "Ġà¤ ľ",
  "à¸ķ à¹Į",
  "à¤ ı",
  "Ġà¤ µ",
  "à¥ Ī",
  "à¸Ľ à¸£",
  "à¤ ·",
  "à¹ģ à¸¥",
  "à¸ª à¸Ķ",
  "à¤ ľ",
  "à¹ģ à¸¥à¸°",
  "ĠÑĢ Ñĥ",
  "Ġà¤ Ĩ",
  "à¥įà¤¯ à¤¾",
  "à¸Ĺ à¸µ",
  "à¸´ à¸ĩ",
  "Ġ à¸¢",
  "à¤ £",
  "à¤¾ à¤¨",
  "ÐºÐ¸ Ð¹",
  "à¤ķ à¥į",
  "à¸± à¸ª",
  "à¸¢ à¸¸",
  "à¸© à¸²",
  "Ñģ Ñģ",
  "ÑģÐºÐ¸ Ð¹",
  "à¹Ħ à¸Ĺà¸¢",
  "ãģĦ ãģ¾ãģĹãģŁ",
  "à¸£ à¸¹à¹ī",
  "Ġà¹ģ à¸¥à¸°",
  "à¤¸ à¥į",
  "ãģ¨ è¨Ģ",
  "à¤¨ à¥į",
  "à¤¯ à¤¾",
  "à¤¤ à¥įà¤°",
  "à¸Ħ à¸²",
  "à¤µ à¤¾",
  "à¸¸ à¸ģ",
  "à¥ĩ à¤Ĥ",
  "à¤ ł",
  "à¸² à¸Ĺ",
  "eb ab",
  "ĠÑĢ ÑĥÑģ",
  "à¤ķà¥į à¤·",
  "à¸§ à¸£à¸£",
  "à¸£à¸² à¸Ħà¸²",
  "à¸¡à¸² à¸ĵ",
  "ÑĢÑĥ Ñģ",
  "à¤¤ à¥į",
  "à¤¿ à¤¯à¤¾",
  "à¸łà¸² à¸©",
  "à¸ľ à¸¹",
  "Ġà¤ ı",
  "à¸Ħà¸£ à¸±à¸ļ",
  "à¤¤ à¥ĩ",
  "à¥Ī à¤Ĥ",
  "à¸Ĺ à¹Īà¸²à¸Ļ",
  "à¤¿ à¤¯",
  "à¸ļ à¸²à¸Ĺ",
  "à¸« à¸į",
  "à¸łà¸² à¸©à¸²",
  "à¸ĩ à¸²à¸¡",
  "à¸Ī à¸±",
  "à¸§à¸± à¸ªà¸Ķ",
  "à¥ ¤",
  "à¤ Ĩ",
  "à¤ ŀ",
  "Ġà¤ª à¤°",
  "à¤° à¥Ģ",
  "Ġà¤Ĩ à¤ª",
  "à¸ª à¸§à¸¢",
  "à¹Ħ à¸Ķ",
  "es po",
  "à¸¢ à¸´à¸Ļ",
  "à¥į à¤·",
  "j ala",
  "à¸§à¸± à¸ª",
  "à¸¢à¸¸ à¸ģ",
  "¼ Ī",
  "Ġà¤ Ķ",
  "à¸Ī à¸±à¸ģ",
  "à¸Ľà¸£à¸° à¸¡à¸²à¸ĵ",
  "à¸«à¸į à¸´à¸ĩ",
  "yst e",
  "ãĤĵ ãģ«",
  "à¤¨ à¤¿",
  "à¸ªà¸§à¸¢ à¸ĩà¸²à¸¡",
  "ĠP ari",
  "p ital",
  "à¸£à¸² à¸Ħ",
  "à¤ł à¥Ģ",
  "Ġà¤ķ à¥įà¤·",
  "à¸§à¸£à¸£ à¸ĵ",
  "à¥į à¤ŀ",
  "à¸§à¸±à¸ª à¸Ķà¸µ",
  "à¸¢à¸¸à¸ģ à¸ķà¹Į",
  "à¤ Ķ",
  "ðŁĺ Ģ",
  "Ġà¤¹ à¥Ī",
  "à¸Ħà¸£ à¸±",
  "Ġà¤® à¥ĩà¤Ĥ",
  "Ġà¤Ķ à¤°",
  "Ġà¤¹ à¥Īà¤Ĥ",
  "Ġà¸ļ à¸²à¸Ĺ",
  "Ġà¤ı à¤ķ",
  "Ġà¤µ à¤¾",
  "à¸ļ à¸²",
  "à¸£ à¸¹",
  "à¸Ĺ à¹Īà¸²",
  "à¸£à¸¹à¹ī à¸Īà¸±à¸ģ",
  "à¤¦ à¥Ģ",
  "à¸Ĺà¸µà¹Ī à¹Ħà¸Ķà¹ī",
  "per a",
  "à¤¸à¥į à¤¤",
  "ãĤĵãģ« ãģ¡ãģ¯",
  "Ġret ur",
  "à¤¿ à¤¨",
  "op era",
  "Ġà¹ģà¸¥à¸° à¸¡à¸µ",
  "Ġà¤® à¥ĩ",
  "à¤® à¥ĩà¤Ĥ",
  "Ġà¤¦ à¥ģ",
  "à¹ģà¸¥à¸° à¸¡à¸µ",
  "n ai",
  "à¤® à¥ĩ",
  "è¨Ģ ãģĦ",
  "on se",
  "ãģĦ ãģ¾",
  "à¸ľà¸¹à¹ī à¸«à¸įà¸´à¸ĩ",
  "à¤¨à¥į à¤¦",
  "Ġà¤ ł",
  "al ap",
  "il in",
  "à¥į à¤¤",
  "Ġà¸ļ à¸²",
  "er at",
  "r anc",
  "Ġà¤ķ à¥įà¤¯à¤¾",
  "à¤ª à¤°",
  "ke b",
  "à¹Ħ à¸Ĺ",
  "ĠÑĢÑĥÑģ ÑģÐºÐ¸Ð¹",
  "à¸² à¸Ĺà¸µ",
  "à¸¢à¸´à¸Ļ à¸Ķà¸µ",
  "à¤¹ à¤¿",
  "à¤ľ à¥įà¤ŀ",
  "à¸Ĺà¸µà¹Ī à¸ªà¸§à¸¢à¸ĩà¸²à¸¡",
  "à¸łà¸²à¸©à¸² à¹Ħà¸Ĺà¸¢",
  "t art",
  "à¸§ à¸£",
  "Ġcap i",
  "à¤¨ à¤¿à¤¯à¤¾",
  "Ġn ai",
  "ãģ¾ ãģĹ",
  "à¤ķà¥įà¤· à¤£",
  "f im",
  "p ful",
  "æĹ¥æľ¬ èªŀ",
  "ãģ¨è¨Ģ ãģĦ"
 ],
 "cases": [
  {
   "text": "hello world",
   "ids": [
    14556,
    1814
   ]
  },
  {
   "text": "The capital of France is Paris.",
   "ids": [
    760,
    6511,
    314,
    9338,
    369,
    11751,
    13
   ]
  },
  {
   "text": "  hello",
   "ids": [
    220,
    23066
   ]
  },
  {
   "text": "   spaced   out   ",
   "ids": [
    256,
    61674,
    256,
    680,
    262
   ]
  },
  {
   "text": "\ttabbed",
   "ids": [
    56196,
    2634
   ]
  },
  {
   "text": "trailing   ",
   "ids": [
    371,
    13868,
    262
   ]
  },
  {
   "text": "a\n\nb",
   "ids": [
    64,
    271,
    65
   ]
  },
  {
   "text": "don't can't won't",
   "ids": [
    14572,
    914,
    628,
    914,
    2677,
    914
   ]
  },
  {
   "text": "Hello, World! 123 456",
   "ids": [
    9419,
    11,
    4196,
    0,
    220,
    16,
    17,
    18,
    220,
    19,
    20,
    21
   ]
  },
  {
   "text": "3.14159 and 1e-9",
   "ids": [
    18,
    13,
    16,
    19,
    16,
    20,
    24,
    321,
    220,
    16,
    68,
    12,
    24
   ]
  },
  {
   "text": "cafe naive jalapeno",
   "ids": [
    895,
    1795,
    47993,
    73374,
    385,
    11452
   ]
  },
  {
   "text": "éèê 日本語 русский",
   "ids": [
    933,
    4311,
    5325,
    220,
    247359,
    211075
   ]
  },
  {
   "text": "😀 emoji 🚀",
   "ids": [
    169706,
    40958,
    10838,
    248,
    222
   ]
  },
  {
   "text": "def f(x):\n    if x > 0:\n        return x\n    return -x",
   "ids": [
    727,
    281,
    2007,
    1590,
    198,
    262,
    413,
    830,
    835,
    220,
    15,
    25,
    198,
    285,
    460,
    830,
    198,
    262,
    460,
    471,
    87
   ]
  },
  {
   "text": "<|im_start|>user\nhi<|im_end|>",
   "ids": [
    248045,
    846,
    198,
    5834,
    248046
   ]
  },
  {
   "text": "MixedCASE_snake_case-kebab.dot",
   "ids": [
    83445,
    39034,
    27116,
    706,
    18521,
    12,
    432,
    46133,
    22080
   ]
  },
  {
   "text": "­",
   "ids": [
    5581
   ]
  },
  {
   "text": "co­operate",
   "ids": [
    981,
    5581,
    82260
   ]
  },
  {
   "text": "中文",
   "ids": [
    99986
   ]
  },
  {
   "text": "ͭ",
   "ids": [
    137,
    255
   ]
  },
  {
   "text": "ท่านผู้หญิง",
   "ids": [
    153416,
    189389
   ]
  },
  {
   "text": "สวัสดีครับ ยินดีที่ได้รู้จัก",
   "ids": [
    34469,
    168607,
    153295,
    149324,
    82110,
    148598,
    177879,
    177433
   ]
  },
  {
   "text": "ภาษาไทยเป็นภาษาที่สวยงาม และมีวรรณยุกต์",
   "ids": [
    229936,
    148423,
    153871,
    227727,
    182644,
    165249,
    168921
   ]
  },
  {
   "text": "ราคา 125 บาท (ประมาณ)",
   "ids": [
    152227,
    220,
    16,
    17,
    20,
    171327,
    318,
    159673,
    8
   ]
  },
  {
   "text": "नमस्ते दुनिया",
   "ids": [
    58069,
    84237,
    150104,
    153348,
    184642,
    235886
   ]
  },
  {
   "text": "यह एक परीक्षण वाक्य है।",
   "ids": [
    148355,
    90703,
    171549,
    155171,
    42201,
    242749,
    172915,
    62516,
    148465,
    170046,
    154845
   ]
  },
  {
   "text": "हिन्दी में क्षत्रिय और ज्ञान। क्या आप ठीक हैं?",
   "ids": [
    215989,
    150127,
    177453,
    170239,
    165216,
    150422,
    153503,
    170729,
    148861,
    167144,
    149439,
    154845,
    200176,
    155569,
    193520,
    42201,
    62516,
    171094,
    30
   ]
  },
  {
   "text": "你好，世界！这是一个测试。",
   "ids": [
    109266,
    3709,
    96748,
    6115,
    109455,
    99449,
    1710
   ]
  },
  {
   "text": "「こんにちは」と言いました。",
   "ids": [
    12512,
    85951,
    63078,
    96393,
    149832,
    1710
   ]
  },
  {
   "text": "【注意】请阅读《用户手册》（第二版）：第三章、第四章；谢谢……",
   "ids": [
    10586,
    97120,
    10638,
    96220,
    97075,
    26076,
    97237,
    109481,
    24273,
    9616,
    96864,
    96391,
    7313,
    4960,
    117773,
    5205,
    119646,
    24178,
    100035,
    13650
   ]
  },
  {
   "text": "好的。\n\n下一步？『完成』",
   "ids": [
    96747,
    1710,
    271,
    109226,
    10992,
    42081,
    97235,
    34481
   ]
  },
  {
   "text": "你好，。世界",
   "ids": [
    109266,
    3709,
    1710,
    96748
   ]
  },
  {
   "text": "<|im_start|>system\nYou are helpful.<|im_end|>\n<|im_start|>user\nhi<|im_end|>\n<|im_start|>assistant\n<think>\n\n</think>\n\nHello!<|im_end|><|endoftext|>",
   "ids": [
    248045,
    8678,
    198,
    2523,
    513,
    10631,
    13,
    248046,
    198,
    248045,
    846,
    198,
    5834,
    248046,
    198,
    248045,
    74455,
    198,
    248068,
    271,
    248069,
    271,
    9419,
    0,
    248046,
    248044
   ]
  },
  {
   "text": "<tool_call>\n{\"name\": \"f\", \"arguments\": {}}\n</tool_call><tool_response>ok</tool_response>",
   "ids": [
    248058,
    198,
    4754,
    591,
    763,
    328,
    69,
    487,
    328,
    15889,
    763,
    313,
    3307,
    198,
    248059,
    248066,
    547,
    248067
   ]
  },
  {
   "text": "<|vision_start|><|image_pad|><|video_pad|><|vision_end|><|object_ref_start|>x<|object_ref_end|><|box_start|>(1,2)<|box_end|><|quad_start|><|quad_end|><|vision_pad|>",
   "ids": [
    248053,
    248056,
    248057,
    248054,
    248047,
    87,
    248048,
    248049,
    7,
    16,
    11,
    17,
    8,
    248050,
    248051,
    248052,
    248055
   ]
  },
  {
   "text": "<|fim_prefix|>def f():<|fim_suffix|>\n<|fim_middle|>    return 1<|fim_pad|><|repo_name|>r<|file_sep|>a.py",
   "ids": [
    248060,
    727,
    281,
    4406,
    248062,
    198,
    248061,
    262,
    460,
    220,
    16,
    248063,
    248064,
    81,
    248065,
    64,
    6971
   ]
  },
  {
   "text": "a<think>b</think>c <|im_start and im_end|>",
   "ids": [
    64,
    248068,
    65,
    248069,
    66,
    79790,
    316,
    4747,
    321,
    712,
    6018,
    91,
    29
   ]
  }
 ]
}
